WIDTH=32;
DEPTH=65536;
ADDRESS_RADIX=HEX;
DATA_RADIX=HEX;
CONTENT BEGIN
	00000 : BF3ED684;
	00001 : 3F958B8D;
	00002 : 3F8DB199;
	00003 : BF2DBE34;
	00004 : 3E7AC42D;
	00005 : BF28586A;
	00006 : BF2FEEB0;
	00007 : 3F7182A7;
	00008 : 3EF9BC71;
	00009 : BF88A010;
	0000A : BF91BD90;
	0000B : 3F9AECB4;
	0000C : BF34F6E0;
	0000D : 3F831AE1;
	0000E : 3F3D2AB7;
	0000F : BF2847BD;
	[00010..0FFFF] : 00000000;
END;
