WIDTH=32;
DEPTH=65536;
ADDRESS_RADIX=HEX;
DATA_RADIX=HEX;
CONTENT BEGIN
	00000 : BCD01784;
	00001 : 3EA1EEB7;
	00002 : BE061C6E;
	00003 : 3EB0381E;
	00004 : BD59D4FB;
	00005 : 3E7FD2D8;
	00006 : BD7FE93A;
	00007 : BE6D0D29;
	00008 : 3E57AAED;
	00009 : BECD8D86;
	0000A : 3D0EBA29;
	0000B : 3DC5A40D;
	0000C : 3ED74E7C;
	0000D : BDDD8A74;
	0000E : BEA4D1BD;
	0000F : BED99CD9;
	00010 : 3E9A52EC;
	00011 : 3E8CA05F;
	00012 : BDAA8197;
	00013 : BECDE1CF;
	00014 : BE0C6F43;
	00015 : BE9B632D;
	00016 : 3D839576;
	00017 : 3E79FE5E;
	00018 : BE31A84B;
	00019 : 3E99CC58;
	0001A : 3EBEB77F;
	0001B : BE9B09EF;
	0001C : BE97FDBB;
	0001D : BEB289D3;
	0001E : BF0A7758;
	0001F : BEB609CC;
	00020 : BE6EFE1E;
	00021 : 3E85248F;
	00022 : 3DF34117;
	00023 : BEA9875F;
	00024 : 3E7A6FAC;
	00025 : BEC7B670;
	00026 : BEF797F2;
	00027 : 3EDD0144;
	00028 : BD910584;
	00029 : 3D6A2E66;
	0002A : BD4319A0;
	0002B : 3DE5C07F;
	0002C : 3DA664CB;
	0002D : BE85E214;
	0002E : BE29588E;
	0002F : 3E2C496C;
	00030 : BBB98823;
	00031 : BD1A11AC;
	00032 : BEF0F7B5;
	00033 : 3E360DC1;
	00034 : BDBD8711;
	00035 : 3E98A1D7;
	00036 : 3E513E54;
	00037 : BE137A2F;
	00038 : 3DD2DF42;
	00039 : BEEDD74C;
	0003A : 3E57AB9F;
	0003B : BE6B3CEF;
	0003C : BF05485D;
	0003D : 3EE43700;
	0003E : 3EBAE858;
	0003F : BF11126F;
	00040 : BEB6C534;
	00041 : BEC94AAD;
	00042 : 3EED8801;
	00043 : BE8C8540;
	00044 : BE729E96;
	00045 : 3DF1F4B9;
	00046 : BDC2ADCF;
	00047 : BE831BE5;
	00048 : BEFA2E73;
	00049 : BE8D8F58;
	0004A : BD615909;
	0004B : BDC62C18;
	0004C : BEA10068;
	0004D : 3C1656D0;
	0004E : 3D3E0FAC;
	0004F : 3CC3C1CF;
	00050 : BE1A0CC6;
	00051 : 3E154A41;
	00052 : 3E6E6A1B;
	00053 : 3F014511;
	00054 : 3E204BB9;
	00055 : 3E777030;
	00056 : 3E23609E;
	00057 : BCDDCBB2;
	00058 : 3ECD5651;
	00059 : BE01516A;
	0005A : BCF1BF8B;
	0005B : 3E2C4F18;
	0005C : 3EC4C894;
	0005D : 3EA9BBD9;
	0005E : 3E8AF81B;
	0005F : 3CE16355;
	00060 : BD8098F7;
	00061 : BE619E89;
	00062 : BE991279;
	00063 : 3EAC2752;
	00064 : BC39A22B;
	00065 : 3F0826B0;
	00066 : 3E023A0C;
	00067 : BD7A7B81;
	00068 : 3E721C22;
	00069 : 3EB37E1B;
	0006A : 3E24AABF;
	0006B : BE9DCF35;
	0006C : 3E36A22D;
	0006D : BD815C2D;
	0006E : 3E3F4626;
	0006F : 3E81DA61;
	00070 : BA9576C4;
	00071 : BE878270;
	00072 : 3E915B41;
	00073 : 3D8B63EE;
	00074 : 3DF187FF;
	00075 : BEC660C0;
	00076 : BE313AD5;
	00077 : 3ECF160B;
	00078 : 3CF53918;
	00079 : BD555754;
	0007A : 3D4507A6;
	0007B : 3E92B7A8;
	0007C : 3EBCB0C8;
	0007D : BE0D2D3A;
	0007E : BE8CC652;
	0007F : 3E883B08;
	00080 : BEB071C1;
	00081 : BE7EF188;
	00082 : 3BBF1B3B;
	00083 : BEC2A84B;
	00084 : BE1DB635;
	00085 : BE301B36;
	00086 : BE94D68F;
	00087 : 3E27326B;
	00088 : BE923AF8;
	00089 : 3E9C9A15;
	0008A : BEA3D996;
	0008B : 3EA44975;
	0008C : BD59C88F;
	0008D : 3E7563BC;
	0008E : 3EBF7FE3;
	0008F : 3E942279;
	00090 : BED70B24;
	00091 : BE43AE20;
	00092 : 3E9AE16E;
	00093 : 3EA1051F;
	00094 : 3ECC1948;
	00095 : 3EA03270;
	00096 : BDD98DF5;
	00097 : 3E8261B8;
	00098 : 3E8200F4;
	00099 : BE8D8BB4;
	0009A : BE227017;
	0009B : 3E9FDD32;
	0009C : 3E2B3CF6;
	0009D : 3ECE6892;
	0009E : 3E3D253B;
	0009F : 3EBF4E52;
	000A0 : 3E7DA817;
	000A1 : 3D9A20F6;
	000A2 : BE09C5AC;
	000A3 : 3E8E35BE;
	000A4 : BE13828A;
	000A5 : 3E94C741;
	000A6 : 3DF3E1BB;
	000A7 : BEDB55B9;
	000A8 : 3E6E24D3;
	000A9 : 3E98D56E;
	000AA : 3EB18359;
	000AB : BE8D5B73;
	000AC : BE255F70;
	000AD : 3E50D1E0;
	000AE : 3E9CACBF;
	000AF : BD2C354E;
	000B0 : BE0DD6B7;
	000B1 : 3DD5A3DB;
	000B2 : 3F0AD12F;
	000B3 : 3E62F7EB;
	000B4 : BDD4E546;
	000B5 : BEA2E678;
	000B6 : 3CEE788F;
	000B7 : 3E1D5D27;
	000B8 : 3D91A6C8;
	000B9 : 3E8745C7;
	000BA : BE87C881;
	000BB : 3EBB50AF;
	000BC : 3E4EDBAE;
	000BD : BE4DAC23;
	000BE : BEA8956E;
	000BF : 3E81AEEF;
	000C0 : 3D41C90E;
	000C1 : 3EBE528D;
	000C2 : BEC44853;
	000C3 : 3E811E88;
	000C4 : 3E96C18E;
	000C5 : 3DAD1697;
	000C6 : BE9B5856;
	000C7 : BE2C00DB;
	000C8 : 3E32B97F;
	000C9 : BEB22650;
	000CA : 3E2941AE;
	000CB : BE1617A8;
	000CC : BD75880C;
	000CD : BDAD7D72;
	000CE : 3D0C2612;
	000CF : BDA4164B;
	000D0 : 3E0EFBD8;
	000D1 : BE02EF13;
	000D2 : BDB9B9D4;
	000D3 : BD425FFA;
	000D4 : BED6B810;
	000D5 : BE8BE3B4;
	000D6 : 3DEBD112;
	000D7 : BE19A056;
	000D8 : BE84F915;
	000D9 : 3F02A240;
	000DA : 3ED5EA4B;
	000DB : BE3C9E2A;
	000DC : BE874048;
	000DD : BEFCA394;
	000DE : BEE93C47;
	000DF : BEE6393B;
	000E0 : BE89F9DE;
	000E1 : BD00912A;
	000E2 : 3EA09FE0;
	000E3 : 3E0D1CB3;
	000E4 : 3DB25701;
	000E5 : BEEDE323;
	000E6 : BE57A9F2;
	000E7 : 3E712726;
	000E8 : BE98E74F;
	000E9 : BE1D49E6;
	000EA : BE3026E1;
	000EB : BDA88A33;
	000EC : BE879FF8;
	000ED : 3DE9C563;
	000EE : BE089AAA;
	000EF : 3C60E4FA;
	000F0 : 3DC9162A;
	000F1 : 3EA71A42;
	000F2 : BEA50B59;
	000F3 : 3E7C3467;
	000F4 : 3DAF31DB;
	000F5 : 3EA91635;
	000F6 : BC5EC96A;
	000F7 : BEA3DE4C;
	000F8 : 3E936C11;
	000F9 : BEB33EA7;
	000FA : BE337D52;
	000FB : BDAA2C04;
	000FC : BF077ACF;
	000FD : 3EC41317;
	000FE : 3D8AAC47;
	000FF : BF21AEB1;
	00100 : BE0FC1AE;
	00101 : BEA3EC99;
	00102 : 3EBAAA55;
	00103 : 3D6C83F6;
	00104 : 3CA656CD;
	00105 : 3E53F13E;
	00106 : 3D22B605;
	00107 : BE8743C7;
	00108 : BEEE4F8C;
	00109 : 3EE625F7;
	0010A : BE2E30BB;
	0010B : 3E250FE9;
	0010C : BEB00358;
	0010D : 3E343383;
	0010E : BBE12C9B;
	0010F : 3E5A4043;
	00110 : BE147E6D;
	00111 : 3E296DB9;
	00112 : 3EBB8A6C;
	00113 : 3E1326FB;
	00114 : 3DDEC86E;
	00115 : 3E90DB6F;
	00116 : BD517AE9;
	00117 : 3E366B45;
	00118 : BDC4F28E;
	00119 : BEEF0AD9;
	0011A : BBB462C6;
	0011B : 3E5CB418;
	0011C : 3D07EC11;
	0011D : 3DC73D4C;
	0011E : 3EC0A1D5;
	0011F : 3E126020;
	00120 : 3EA12548;
	00121 : BE4CB18B;
	00122 : BE7CF4FF;
	00123 : 3EB8006E;
	00124 : BDEAB770;
	00125 : 3F093AA5;
	00126 : 3F00D6C2;
	00127 : BED29E81;
	00128 : 3E6B56FA;
	00129 : BD955C26;
	0012A : BE674C26;
	0012B : 3D2C0B86;
	0012C : BE1AA457;
	0012D : BE0995EE;
	0012E : 3E82605B;
	0012F : 3DF58835;
	00130 : BDDE2091;
	00131 : BE263D92;
	00132 : 3EF860F1;
	00133 : BE6CFA1B;
	00134 : BD97E193;
	00135 : BE785246;
	00136 : BD0A0BDF;
	00137 : 3EEF2032;
	00138 : 3DC55D00;
	00139 : 3E9D7B61;
	0013A : BE8B3611;
	0013B : 3E9D2FC6;
	0013C : 3E9E9E8D;
	0013D : BE5004C3;
	0013E : BEC3BF34;
	0013F : 3F243DDE;
	00140 : 3EE38D8F;
	00141 : 3EF17CB7;
	00142 : BEAA56D2;
	00143 : 3D3EA653;
	00144 : 3EA79171;
	00145 : BE5A24D4;
	00146 : 3D1BF42B;
	00147 : 3D8F106F;
	00148 : 3E6E36C1;
	00149 : 3E734390;
	0014A : 3EF72999;
	0014B : BEB348DB;
	0014C : 3ED4D61A;
	0014D : 3E830FD0;
	0014E : 3DF6C873;
	0014F : 3E3273B3;
	00150 : 3F1E9F7F;
	00151 : 3E855716;
	00152 : BDD51173;
	00153 : BE9CB9B2;
	00154 : BEE77DB7;
	00155 : BEF50BA2;
	00156 : 3D559D71;
	00157 : 3D4F49FE;
	00158 : BF1233CF;
	00159 : 3C8B2CAF;
	0015A : 3E331595;
	0015B : BE733120;
	0015C : BE03DEC7;
	0015D : BDCE7519;
	0015E : BF175055;
	0015F : BEC71912;
	00160 : 3E1DED36;
	00161 : 3D1C69DA;
	00162 : 3E8CF065;
	00163 : 3DA2DC45;
	00164 : BE8494C0;
	00165 : BE0DC5D6;
	00166 : BEE9B84A;
	00167 : 3E704727;
	00168 : BEA29ECC;
	00169 : BE4AA712;
	0016A : 3EB30AA5;
	0016B : 3EE9E8F4;
	0016C : BDCEF69F;
	0016D : 3CE67E21;
	0016E : BE5359F2;
	0016F : BC9E06C9;
	00170 : 3DDA2CBB;
	00171 : 3E222F28;
	00172 : BEE88BE7;
	00173 : 3E9BFEBA;
	00174 : 3E03E34D;
	00175 : 3EAE077F;
	00176 : BDDAD563;
	00177 : BE9AE0F2;
	00178 : BDF9A187;
	00179 : BF078787;
	0017A : BE59E66C;
	0017B : BD824811;
	0017C : BEC5DECF;
	0017D : BD190CB1;
	0017E : 3E7EAC51;
	0017F : BECDC7B0;
	00180 : 3EB65F9D;
	00181 : 3ED98BAC;
	00182 : BE93A107;
	00183 : BD1A4CD7;
	00184 : 3E34C29E;
	00185 : 3C9AC4C3;
	00186 : BE3FC471;
	00187 : 3E93D2C2;
	00188 : 3E0E3CC8;
	00189 : 3E0AB7CE;
	0018A : 3E902B38;
	0018B : BD4E4630;
	0018C : 3EB7D5FD;
	0018D : BE7922FD;
	0018E : BEA04B5A;
	0018F : BE76F47D;
	00190 : 3ED54BF3;
	00191 : BE5FB1BB;
	00192 : BE0ACFEF;
	00193 : BEF39872;
	00194 : BEB303E0;
	00195 : BD56A9F0;
	00196 : BE3F4740;
	00197 : 3D981263;
	00198 : BE852319;
	00199 : 3EFDAC8F;
	0019A : BCA3F915;
	0019B : BCC224C4;
	0019C : BD0F4844;
	0019D : BE55BAC9;
	0019E : BEB6BC44;
	0019F : BE6E44D7;
	001A0 : BDA0DB98;
	001A1 : BE6261C2;
	001A2 : 3EE73094;
	001A3 : 3DFBA3BE;
	001A4 : BDF195CF;
	001A5 : BDD37921;
	001A6 : 3D28F01F;
	001A7 : 3DEF042E;
	001A8 : BE548810;
	001A9 : BE85888D;
	001AA : BE866352;
	001AB : BDCA1300;
	001AC : BEB016B2;
	001AD : BE60BED5;
	001AE : BEA8CC71;
	001AF : 3E3A2DC2;
	001B0 : 3D238410;
	001B1 : 3EBECDE0;
	001B2 : BECF5AC0;
	001B3 : BC81FE78;
	001B4 : 3E4ADFEA;
	001B5 : 3EC9EF10;
	001B6 : 3D4F11D0;
	001B7 : BEDAC158;
	001B8 : 3E1542ED;
	001B9 : BECB9E81;
	001BA : 3D80634B;
	001BB : BEB0204E;
	001BC : BE90AACD;
	001BD : 3EFF96D4;
	001BE : 3CCB7DB7;
	001BF : BEB8C2B5;
	001C0 : 3D82FC93;
	001C1 : BE557F25;
	001C2 : 3E2F1133;
	001C3 : BED1AD10;
	001C4 : BE27B941;
	001C5 : BE1C4F5E;
	001C6 : BE0166DA;
	001C7 : BD6D82D8;
	001C8 : BE2273F6;
	001C9 : 3E51372F;
	001CA : BD907C60;
	001CB : 3EB668D0;
	001CC : BDEA95AA;
	001CD : BE3F458B;
	001CE : 3E770F9F;
	001CF : 3E0AA573;
	001D0 : BE0AD252;
	001D1 : BD84CBF4;
	001D2 : 3EBE3C1C;
	001D3 : 3EB18C3B;
	001D4 : 3EBE12A2;
	001D5 : 3EF79D58;
	001D6 : BE88214D;
	001D7 : 3E55B352;
	001D8 : 3D9343B2;
	001D9 : BEE033FD;
	001DA : BEBBB178;
	001DB : 3EA9941A;
	001DC : 3DDFB7BF;
	001DD : 3EB46394;
	001DE : 3F08F163;
	001DF : 3EBCFEE4;
	001E0 : 3CB4FAD5;
	001E1 : 3E1F0067;
	001E2 : BEB130F1;
	001E3 : 3DD46430;
	001E4 : 3CCD171D;
	001E5 : 3EF89DC8;
	001E6 : 3EA5AAA9;
	001E7 : BEC92211;
	001E8 : BDFB2EF1;
	001E9 : BD0ED350;
	001EA : BD9C3C19;
	001EB : 3E35EE36;
	001EC : BD899CB7;
	001ED : BE23A55D;
	001EE : 3EC40D28;
	001EF : BE7E1EAB;
	001F0 : 3E2474F1;
	001F1 : BE8705AE;
	001F2 : 3F2CD086;
	001F3 : 3D8F944F;
	001F4 : 3E1534A7;
	001F5 : BE9342B5;
	001F6 : BDC50DA4;
	001F7 : 3EB8456D;
	001F8 : 3D8CCE47;
	001F9 : 3E70F461;
	001FA : 3E5776F4;
	001FB : 3E79FF63;
	001FC : 3DDDDC06;
	001FD : BEBDDBFF;
	001FE : BE80C885;
	001FF : 3F013B55;
	[00200..0FFFF] : 00000000;
END;
